0001
0110
1111
1011
0001
0001
0011
1010
1010
0101
0111
1100
0001
1111
0110
1100
1110
1111
0000
1010
1101
0000
1100
1010
0100
1010
1101
0010
1011
1100
0010
0010
0010
1001
1000
0111
0000
1001
0011
1011
0100
0111
0110
0101
1000
1001
0001
1001
0011
1110
0100
0100
0111
1011
1110
1100
1101
0010
0100
0011
1100
1110
1111
1111
1000
1110
0000
0000
0101
0111
0111
1110
1111
1011
0111
1001
0101
0110
1010
0010
0100
0111
0011
0111
1101
1001
0110
0111
1000
1101
0011
1101
0110
0011
1011
1110
0101
0101
0000
0001
