0111
1011
0110
1101
0001
1101
1001
0101
1011
1110
1100
1111
0100
0111
1111
0110
1100
1101
0000
1010
0011
1111
0011
0111
0100
0010
0010
1011
0101
1111
1100
0011
1111
0010
0110
0011
0100
0100
1010
0000
1011
1010
1101
0010
0101
0111
0111
1100
0111
0101
0001
1000
0110
0000
1000
1010
1110
1101
0111
1101
1110
0101
0110
0001
0111
0111
0000
1110
0001
0010
1100
1001
1001
1110
0100
0110
1111
0100
0011
0000
1100
0001
1011
1000
1010
1001
0010
0011
0111
1001
1010
1001
0101
0010
1011
0000
1101
1000
0001
1110
